TRT-8502-EntropyCalibration2
images: 3b66eddc
/model.0/conv/Conv_output_0: 3ef7b5d9
/model.0/act/Sigmoid_output_0: 3c010a14
/model.0/act/Mul_output_0: 3ea9b1de
/model.1/conv/Conv_output_0: 3ef1dfda
/model.1/act/Sigmoid_output_0: 3c010a14
/model.1/act/Mul_output_0: 3ea55bec
/model.2/cv1/conv/Conv_output_0: 3e8bcab4
/model.2/cv1/act/Sigmoid_output_0: 3c010a14
/model.2/cv1/act/Mul_output_0: 3d936567
/model.2/Split_output_0: 3d936567
/model.2/Split_output_1: 3d91e07a
/model.2/m.0/cv1/conv/Conv_output_0: 3d46bed5
/model.2/m.0/cv1/act/Sigmoid_output_0: 3c0012e1
/model.2/m.0/cv1/act/Mul_output_0: 3d240a8e
/model.2/m.0/cv2/conv/Conv_output_0: 3dab1fe2
/model.2/m.0/cv2/act/Sigmoid_output_0: 3c010a13
/model.2/m.0/cv2/act/Mul_output_0: 3dbe2fe7
/model.2/m.0/Add_output_0: 3dafafde
/model.2/Concat_output_0: 3dbbfc25
/model.2/cv2/conv/Conv_output_0: 3dce9b46
/model.2/cv2/act/Sigmoid_output_0: 3c00c98e
/model.2/cv2/act/Mul_output_0: 3d2458e1
/model.3/conv/Conv_output_0: 3d8458af
/model.3/act/Sigmoid_output_0: 3c098f1c
/model.3/act/Mul_output_0: 3cd345d8
/model.4/cv1/conv/Conv_output_0: 3d98d53b
/model.4/cv1/act/Sigmoid_output_0: 3bfe30ad
/model.4/cv1/act/Mul_output_0: 3cd0baae
/model.4/Split_output_0: 3cfeac80
/model.4/Split_output_1: 3c99ff02
/model.4/m.0/cv1/conv/Conv_output_0: 3cf768a7
/model.4/m.0/cv1/act/Sigmoid_output_0: 3bef8a0d
/model.4/m.0/cv1/act/Mul_output_0: 3ca59bec
/model.4/m.0/cv2/conv/Conv_output_0: 3d2af5b3
/model.4/m.0/cv2/act/Sigmoid_output_0: 3c08ce64
/model.4/m.0/cv2/act/Mul_output_0: 3d0ede65
/model.4/m.0/Add_output_0: 3d2fb906
/model.4/Concat_output_0: 3d0f7e95
/model.4/cv2/conv/Conv_output_0: 3d5b859e
/model.4/cv2/act/Sigmoid_output_0: 3bfa3295
/model.4/cv2/act/Mul_output_0: 3c01c02b
/model.5/conv/Conv_output_0: 3d3f9ca0
/model.5/act/Sigmoid_output_0: 3c04c579
/model.5/act/Mul_output_0: 3cb490fe
/model.6/cv1/conv/Conv_output_0: 3d688c08
/model.6/cv1/act/Sigmoid_output_0: 3c0105e0
/model.6/cv1/act/Mul_output_0: 3cb22f86
/model.6/Split_output_0: 3cc28c98
/model.6/Split_output_1: 3cb22f86
/model.6/m.0/cv1/conv/Conv_output_0: 3d10d044
/model.6/m.0/cv2/conv/Conv_output_0: 3d5f7bce
/model.6/m.0/cv1/act/Sigmoid_output_0: 3c00dc7f
/model.6/m.0/cv2/act/Sigmoid_output_0: 3c00b325
/model.6/m.0/cv1/act/Mul_output_0: 3c918638
/model.6/m.0/cv2/act/Mul_output_0: 3d00ddc7
/model.6/m.0/m/m.0/cv1/conv/Conv_output_0: 3d4ed4d4
/model.6/m.0/m/m.0/cv1/act/Sigmoid_output_0: 3c05f593
/model.6/m.0/m/m.0/cv1/act/Mul_output_0: 3c736da8
/model.6/m.0/m/m.0/cv2/conv/Conv_output_0: 3d358212
/model.6/m.0/m/m.0/cv2/act/Sigmoid_output_0: 3c05c652
/model.6/m.0/m/m.0/cv2/act/Mul_output_0: 3cd1876c
/model.6/m.0/m/m.0/Add_output_0: 3d24932e
/model.6/m.0/m/m.1/cv1/conv/Conv_output_0: 3d14e9ab
/model.6/m.0/m/m.1/cv1/act/Sigmoid_output_0: 3c0ab8e8
/model.6/m.0/m/m.1/cv1/act/Mul_output_0: 3c73215b
/model.6/m.0/m/m.1/cv2/conv/Conv_output_0: 3d7e0360
/model.6/m.0/m/m.1/cv2/act/Sigmoid_output_0: 3c010109
/model.6/m.0/m/m.1/cv2/act/Mul_output_0: 3d3fab42
/model.6/m.0/m/m.1/Add_output_0: 3d85fafd
/model.6/m.0/Concat_output_0: 3d44663d
/model.6/m.0/cv3/conv/Conv_output_0: 3d8d030e
/model.6/m.0/cv3/act/Sigmoid_output_0: 3c0af539
/model.6/m.0/cv3/act/Mul_output_0: 3ce99021
/model.6/Concat_output_0: 3cb22f86
/model.6/cv2/conv/Conv_output_0: 3d4ca825
/model.6/cv2/act/Sigmoid_output_0: 3c00fc3d
/model.6/cv2/act/Mul_output_0: 3ca6bcbe
/model.7/conv/Conv_output_0: 3d3f7085
/model.7/act/Sigmoid_output_0: 3c01b273
/model.7/act/Mul_output_0: 3cb44a03
/model.8/cv1/conv/Conv_output_0: 3d852d61
/model.8/cv1/act/Sigmoid_output_0: 3c030fca
/model.8/cv1/act/Mul_output_0: 3d021e3a
/model.8/Split_output_0: 3cd27c7b
/model.8/Split_output_1: 3d021e3a
/model.8/m.0/cv1/conv/Conv_output_0: 3d78ef99
/model.8/m.0/cv2/conv/Conv_output_0: 3d6729f6
/model.8/m.0/cv1/act/Sigmoid_output_0: 3c02d770
/model.8/m.0/cv2/act/Sigmoid_output_0: 3c00f094
/model.8/m.0/cv1/act/Mul_output_0: 3cc149ab
/model.8/m.0/cv2/act/Mul_output_0: 3cc07a7e
/model.8/m.0/m/m.0/cv1/conv/Conv_output_0: 3dc62d04
/model.8/m.0/m/m.0/cv1/act/Sigmoid_output_0: 3c0872ff
/model.8/m.0/m/m.0/cv1/act/Mul_output_0: 3cd44e47
/model.8/m.0/m/m.0/cv2/conv/Conv_output_0: 3d73553d
/model.8/m.0/m/m.0/cv2/act/Sigmoid_output_0: 3c050e9c
/model.8/m.0/m/m.0/cv2/act/Mul_output_0: 3cfebf86
/model.8/m.0/m/m.0/Add_output_0: 3da3ce95
/model.8/m.0/m/m.1/cv1/conv/Conv_output_0: 3d78d6fc
/model.8/m.0/m/m.1/cv1/act/Sigmoid_output_0: 3c052166
/model.8/m.0/m/m.1/cv1/act/Mul_output_0: 3c805240
/model.8/m.0/m/m.1/cv2/conv/Conv_output_0: 3d94d822
/model.8/m.0/m/m.1/cv2/act/Sigmoid_output_0: 3c099fcc
/model.8/m.0/m/m.1/cv2/act/Mul_output_0: 3d8f998f
/model.8/m.0/m/m.1/Add_output_0: 3da99db0
/model.8/m.0/Concat_output_0: 3d8f46d5
/model.8/m.0/cv3/conv/Conv_output_0: 3d739007
/model.8/m.0/cv3/act/Sigmoid_output_0: 3c00c03c
/model.8/m.0/cv3/act/Mul_output_0: 3cd1dea3
/model.8/Concat_output_0: 3d021e3a
/model.8/cv2/conv/Conv_output_0: 3d6b3bf3
/model.8/cv2/act/Sigmoid_output_0: 3c00e0b0
/model.8/cv2/act/Mul_output_0: 3cffd837
/model.9/cv1/conv/Conv_output_0: 3d50684b
/model.9/cv1/act/Sigmoid_output_0: 3c00b139
/model.9/cv1/act/Mul_output_0: 3d686b90
/model.9/m/MaxPool_output_0: 3d686b90
/model.9/m_1/MaxPool_output_0: 3d686b90
/model.9/m_2/MaxPool_output_0: 3d686b90
/model.9/Concat_output_0: 3d5a9405
/model.9/cv2/conv/Conv_output_0: 3d59d6e6
/model.9/cv2/act/Sigmoid_output_0: 3c00170b
/model.9/cv2/act/Mul_output_0: 3c67b283
/model.10/cv1/conv/Conv_output_0: 3da29bf7
/model.10/cv1/act/Sigmoid_output_0: 3c01115f
/model.10/cv1/act/Mul_output_0: 3d25602d
/model.10/Split_output_0: 3d0049cd
/model.10/Split_output_1: 3d250a37
/model.10/m/m.0/attn/qkv/conv/Conv_output_0: 3d52fef0
/model.10/m/m.0/attn/Reshape_output_0: 3d52fef0
/model.10/m/m.0/attn/Split_output_0: 3d809ca0
/model.10/m/m.0/attn/Split_output_1: 3d6191bc
/model.10/m/m.0/attn/Split_output_2: 3d5041a4
/model.10/m/m.0/attn/Transpose_output_0: 3d809ca0
/model.10/m/m.0/attn/Reshape_2_output_0: 3d5041a4
/model.10/m/m.0/attn/MatMul_output_0: 3f73d455
/model.10/m/m.0/attn/pe/conv/Conv_output_0: 3d4fd418
(Unnamed Layer* 206) [Shuffle]_output: 3ab67d3d
/model.10/m/m.0/attn/Mul_1_output_0: 3e2c69d7
(Unnamed Layer* 208) [Softmax]_output: 3a86a3d8
/model.10/m/m.0/attn/Transpose_1_output_0: 3a86a3d8
/model.10/m/m.0/attn/MatMul_1_output_0: 3d544f1f
/model.10/m/m.0/attn/Reshape_1_output_0: 3d544f1f
/model.10/m/m.0/attn/Add_output_0: 3d09871a
/model.10/m/m.0/attn/proj/conv/Conv_output_0: 3d00cf31
/model.10/m/m.0/Add_output_0: 3da5cdb5
/model.10/m/m.0/ffn/ffn.0/conv/Conv_output_0: 3d793081
/model.10/m/m.0/ffn/ffn.0/act/Sigmoid_output_0: 3c050a97
/model.10/m/m.0/ffn/ffn.0/act/Mul_output_0: 3cb1e496
/model.10/m/m.0/ffn/ffn.1/conv/Conv_output_0: 3d253ee5
/model.10/m/m.0/Add_1_output_0: 3d93fd3d
/model.10/Concat_output_0: 3d28991f
/model.10/cv2/conv/Conv_output_0: 3d79b7b3
/model.10/cv2/act/Sigmoid_output_0: 3c01281c
/model.10/cv2/act/Mul_output_0: 3c91afd0
/model.11/Resize_output_0: 3c91afd0
/model.12/Concat_output_0: 3ca6bcbe
/model.13/cv1/conv/Conv_output_0: 3d40bb80
/model.13/cv1/act/Sigmoid_output_0: 3c00a9e6
/model.13/cv1/act/Mul_output_0: 3c9921d7
/model.13/Split_output_0: 3cc1b6c9
/model.13/Split_output_1: 3c6604df
/model.13/m.0/cv1/conv/Conv_output_0: 3d50dc48
/model.13/m.0/cv1/act/Sigmoid_output_0: 3c05c03e
/model.13/m.0/cv1/act/Mul_output_0: 3ca5a3b7
/model.13/m.0/cv2/conv/Conv_output_0: 3d634114
/model.13/m.0/cv2/act/Sigmoid_output_0: 3c0064a6
/model.13/m.0/cv2/act/Mul_output_0: 3d02054b
/model.13/m.0/Add_output_0: 3d3035e8
/model.13/Concat_output_0: 3cb0de02
/model.13/cv2/conv/Conv_output_0: 3d48a73d
/model.13/cv2/act/Sigmoid_output_0: 3c02ed6f
/model.13/cv2/act/Mul_output_0: 3c66b042
/model.14/Resize_output_0: 3c66b042
/model.15/Concat_output_0: 3c14b89b
/model.16/cv1/conv/Conv_output_0: 3d2783cd
/model.16/cv1/act/Sigmoid_output_0: 3c02e211
/model.16/cv1/act/Mul_output_0: 3c802874
/model.16/Split_output_0: 3ca51527
/model.16/Split_output_1: 3c251e54
/model.16/m.0/cv1/conv/Conv_output_0: 3d3bc026
/model.16/m.0/cv1/act/Sigmoid_output_0: 3bfead5c
/model.16/m.0/cv1/act/Mul_output_0: 3cbffe14
/model.16/m.0/cv2/conv/Conv_output_0: 3d449a63
/model.16/m.0/cv2/act/Sigmoid_output_0: 3c0a3fc4
/model.16/m.0/cv2/act/Mul_output_0: 3cc20b3a
/model.16/m.0/Add_output_0: 3d1933e2
/model.16/Concat_output_0: 3cc1dfb4
/model.16/cv2/conv/Conv_output_0: 3d401d30
/model.16/cv2/act/Sigmoid_output_0: 3bfde37f
/model.16/cv2/act/Mul_output_0: 3c805911
/model.17/conv/Conv_output_0: 3d52fc31
/model.23/cv2.0/cv2.0.0/conv/Conv_output_0: 3d958a2a
/model.23/cv3.0/cv3.0.0/cv3.0.0.0/conv/Conv_output_0: 3d660803
/model.23/cv4.0/cv4.0.0/conv/Conv_output_0: 3d4e43dd
/model.17/act/Sigmoid_output_0: 3c01c3d9
/model.23/cv2.0/cv2.0.0/act/Sigmoid_output_0: 3c00f9af
/model.23/cv3.0/cv3.0.0/cv3.0.0.0/act/Sigmoid_output_0: 3c01ee67
/model.23/cv4.0/cv4.0.0/act/Sigmoid_output_0: 3c008270
/model.17/act/Mul_output_0: 3c9a6fee
/model.23/cv2.0/cv2.0.0/act/Mul_output_0: 3ce6d0b4
/model.23/cv3.0/cv3.0.0/cv3.0.0.0/act/Mul_output_0: 3d64e5bb
/model.23/cv4.0/cv4.0.0/act/Mul_output_0: 3ce7a5df
/model.18/Concat_output_0: 3c9a6fee
/model.23/cv2.0/cv2.0.1/conv/Conv_output_0: 3e2e86b5
/model.23/cv3.0/cv3.0.0/cv3.0.0.1/conv/Conv_output_0: 3d72a6e6
/model.23/cv4.0/cv4.0.1/conv/Conv_output_0: 3d7517dc
/model.19/cv1/conv/Conv_output_0: 3d85433e
/model.23/cv2.0/cv2.0.1/act/Sigmoid_output_0: 3c010a14
/model.23/cv3.0/cv3.0.0/cv3.0.0.1/act/Sigmoid_output_0: 3c040acb
/model.23/cv4.0/cv4.0.1/act/Sigmoid_output_0: 3c0522bc
/model.19/cv1/act/Sigmoid_output_0: 3c068b16
/model.23/cv2.0/cv2.0.1/act/Mul_output_0: 3dc7a9a4
/model.23/cv3.0/cv3.0.0/cv3.0.0.1/act/Mul_output_0: 3d122019
/model.23/cv4.0/cv4.0.1/act/Mul_output_0: 3d26ed39
/model.19/cv1/act/Mul_output_0: 3cb1fda0
/model.23/cv2.0/cv2.0.2/Conv_output_0: 3e323826
/model.23/cv3.0/cv3.0.1/cv3.0.1.0/conv/Conv_output_0: 3db33959
/model.23/cv4.0/cv4.0.2/Conv_output_0: 3c8dd77f
/model.19/Split_output_0: 3ce738ba
/model.19/Split_output_1: 3c523f01
/model.23/cv3.0/cv3.0.1/cv3.0.1.0/act/Sigmoid_output_0: 3c05bb67
/model.19/m.0/cv1/conv/Conv_output_0: 3d45d415
/model.23/cv3.0/cv3.0.1/cv3.0.1.0/act/Mul_output_0: 3d69c520
/model.19/m.0/cv1/act/Sigmoid_output_0: 3bfdc766
/model.23/cv3.0/cv3.0.1/cv3.0.1.1/conv/Conv_output_0: 3e2d4d33
/model.19/m.0/cv1/act/Mul_output_0: 3c9aa184
/model.23/cv3.0/cv3.0.1/cv3.0.1.1/act/Sigmoid_output_0: 3c010a14
/model.19/m.0/cv2/conv/Conv_output_0: 3dab87ba
/model.23/cv3.0/cv3.0.1/cv3.0.1.1/act/Mul_output_0: 3dc50af6
/model.19/m.0/cv2/act/Sigmoid_output_0: 3c00f70e
/model.23/cv3.0/cv3.0.2/Conv_output_0: 3eedb124
/model.19/m.0/cv2/act/Mul_output_0: 3d11e38e
/model.23/Concat_output_0: 3e148b9f
/model.19/m.0/Add_output_0: 3d64f36b
/model.19/Concat_output_0: 3ce65148
/model.19/cv2/conv/Conv_output_0: 3db0c321
/model.19/cv2/act/Sigmoid_output_0: 3c0090fc
/model.23/Range_output_0: 3f1f4871
(Unnamed Layer* 354) [Shuffle]_output: 3c010a14
/model.23/Range_1_output_0: 3f1f4871
(Unnamed Layer* 363) [Shuffle]_output: 3c010a14
/model.19/cv2/act/Mul_output_0: 3c8fffa4
/model.23/Reshape_output_0: 3e148b9f
(Unnamed Layer* 368) [Shuffle]_output: 3b810a14
/model.23/Add_output_0: 3f204a85
(Unnamed Layer* 370) [Shuffle]_output: 3b810a14
/model.23/Add_1_output_0: 3f204a85
/model.20/conv/Conv_output_0: 3d3fe590
/model.23/cv2.1/cv2.1.0/conv/Conv_output_0: 3d832766
/model.23/cv3.1/cv3.1.0/cv3.1.0.0/conv/Conv_output_0: 3da4bef6
/model.23/cv4.1/cv4.1.0/conv/Conv_output_0: 3d396141
(Unnamed Layer* 378) [Constant]_output: 0
(Unnamed Layer* 379) [Shuffle]_output: 0
/model.23/ConstantOfShape_output_0: 0
/model.23/Reshape_5_output_0: 3f204a85
/model.23/Reshape_6_output_0: 3f204a85
/model.20/act/Sigmoid_output_0: 3c0088a3
/model.23/cv2.1/cv2.1.0/act/Sigmoid_output_0: 3c0194a8
/model.23/cv3.1/cv3.1.0/cv3.1.0.0/act/Sigmoid_output_0: 3c010a14
/model.23/cv4.1/cv4.1.0/act/Sigmoid_output_0: 3c00b7aa
(Unnamed Layer* 391) [Shuffle]_output: 3d810a14
/model.23/Add_2_output_0: 3d810a14
/model.20/act/Mul_output_0: 3cd376e0
/model.23/cv2.1/cv2.1.0/act/Mul_output_0: 3d0007d6
/model.23/cv3.1/cv3.1.0/cv3.1.0.0/act/Mul_output_0: 3dbd2188
/model.23/cv4.1/cv4.1.0/act/Mul_output_0: 3d011825
/model.23/Expand_output_0: 3f204a85
/model.23/Expand_1_output_0: 3f204a85
/model.21/Concat_output_0: 3c913d63
/model.23/cv2.1/cv2.1.1/conv/Conv_output_0: 3e07cb36
/model.23/cv3.1/cv3.1.0/cv3.1.0.1/conv/Conv_output_0: 3d85a1e6
/model.23/cv4.1/cv4.1.1/conv/Conv_output_0: 3d6402f9
/model.23/Unsqueeze_3_output_0: 3f204a85
/model.23/Unsqueeze_4_output_0: 3f204a85
/model.22/cv1/conv/Conv_output_0: 3d4f3d08
/model.23/cv2.1/cv2.1.1/act/Sigmoid_output_0: 3c031532
/model.23/cv3.1/cv3.1.0/cv3.1.0.1/act/Sigmoid_output_0: 3c00c4c2
/model.23/cv4.1/cv4.1.1/act/Sigmoid_output_0: 3c069315
/model.23/Concat_10_output_0: 3f204a85
/model.22/cv1/act/Sigmoid_output_0: 3c0845fd
/model.23/cv2.1/cv2.1.1/act/Mul_output_0: 3d92fc12
/model.23/cv3.1/cv3.1.0/cv3.1.0.1/act/Mul_output_0: 3d01b8e2
/model.23/cv4.1/cv4.1.1/act/Mul_output_0: 3d0fd99f
/model.23/Reshape_7_output_0: 3f204a85
/model.22/cv1/act/Mul_output_0: 3cec62f5
/model.23/cv2.1/cv2.1.2/Conv_output_0: 3e00e2bc
/model.23/cv3.1/cv3.1.1/cv3.1.1.0/conv/Conv_output_0: 3d8c27db
/model.23/cv4.1/cv4.1.2/Conv_output_0: 3c99fb3a
/model.22/Split_output_0: 3ce7b11a
/model.22/Split_output_1: 3cc009fb
/model.23/cv3.1/cv3.1.1/cv3.1.1.0/act/Sigmoid_output_0: 3c01325c
/model.22/m.0/cv1/conv/Conv_output_0: 3d031a3f
/model.22/m.0/cv2/conv/Conv_output_0: 3d380297
/model.23/cv3.1/cv3.1.1/cv3.1.1.0/act/Mul_output_0: 3d449417
/model.22/m.0/cv1/act/Sigmoid_output_0: 3bec8a8c
/model.22/m.0/cv2/act/Sigmoid_output_0: 3c007fbb
/model.23/cv3.1/cv3.1.1/cv3.1.1.1/conv/Conv_output_0: 3e3b09e5
/model.22/m.0/cv1/act/Mul_output_0: 3c690ff3
/model.22/m.0/cv2/act/Mul_output_0: 3cff7a7f
/model.23/cv3.1/cv3.1.1/cv3.1.1.1/act/Sigmoid_output_0: 3c010a14
/model.22/m.0/m/m.0/cv1/conv/Conv_output_0: 3d4201a9
/model.23/cv3.1/cv3.1.1/cv3.1.1.1/act/Mul_output_0: 3dcb4c11
/model.22/m.0/m/m.0/cv1/act/Sigmoid_output_0: 3c0fb817
/model.23/cv3.1/cv3.1.2/Conv_output_0: 3f10d909
/model.22/m.0/m/m.0/cv1/act/Mul_output_0: 3ca66270
/model.23/Concat_1_output_0: 3ddf9363
/model.22/m.0/m/m.0/cv2/conv/Conv_output_0: 3d2e4e7b
/model.23/Reshape_1_output_0: 3ddf9363
/model.22/m.0/m/m.0/cv2/act/Sigmoid_output_0: 3c03d145
/model.22/m.0/m/m.0/cv2/act/Mul_output_0: 3c9a0942
/model.22/m.0/m/m.0/Add_output_0: 3d0f6cb5
/model.23/Range_2_output_0: 3e9d4449
(Unnamed Layer* 493) [Shuffle]_output: 3c010a14
/model.23/Range_3_output_0: 3e9d4449
(Unnamed Layer* 502) [Shuffle]_output: 3c010a14
/model.22/m.0/m/m.1/cv1/conv/Conv_output_0: 3d2b9ff7
(Unnamed Layer* 505) [Shuffle]_output: 3b810a14
/model.23/Add_3_output_0: 3e9f4871
(Unnamed Layer* 507) [Shuffle]_output: 3b810a14
/model.23/Add_4_output_0: 3e9f4871
/model.22/m.0/m/m.1/cv1/act/Sigmoid_output_0: 3c00d5f5
(Unnamed Layer* 511) [Constant]_output: 0
(Unnamed Layer* 512) [Shuffle]_output: 0
/model.23/ConstantOfShape_1_output_0: 0
/model.23/Reshape_10_output_0: 3e9f4871
/model.23/Reshape_11_output_0: 3e9f4871
/model.22/m.0/m/m.1/cv1/act/Mul_output_0: 3c908cf1
(Unnamed Layer* 521) [Shuffle]_output: 3e010a14
/model.23/Add_5_output_0: 3e010a14
/model.22/m.0/m/m.1/cv2/conv/Conv_output_0: 3d953266
/model.23/Expand_2_output_0: 3e9f4871
/model.23/Expand_3_output_0: 3e9f4871
/model.22/m.0/m/m.1/cv2/act/Sigmoid_output_0: 3c010a14
/model.23/Unsqueeze_6_output_0: 3e9f4871
/model.23/Unsqueeze_7_output_0: 3e9f4871
/model.22/m.0/m/m.1/cv2/act/Mul_output_0: 3d42468d
/model.23/Concat_15_output_0: 3e9f4871
/model.22/m.0/m/m.1/Add_output_0: 3d837c11
/model.23/Reshape_12_output_0: 3e9f4871
/model.22/m.0/Concat_output_0: 3d418034
/model.22/m.0/cv3/conv/Conv_output_0: 3d927e26
/model.22/m.0/cv3/act/Sigmoid_output_0: 3c03651b
/model.22/m.0/cv3/act/Mul_output_0: 3ce61775
/model.22/Concat_output_0: 3ce74766
/model.22/cv2/conv/Conv_output_0: 3d84f8bd
/model.22/cv2/act/Sigmoid_output_0: 3c0a59d3
/model.22/cv2/act/Mul_output_0: 3d11ece7
/model.23/cv2.2/cv2.2.0/conv/Conv_output_0: 3d8135ff
/model.23/cv3.2/cv3.2.0/cv3.2.0.0/conv/Conv_output_0: 3d6c08c3
/model.23/cv4.2/cv4.2.0/conv/Conv_output_0: 3d24beae
/model.23/cv2.2/cv2.2.0/act/Sigmoid_output_0: 3c062968
/model.23/cv3.2/cv3.2.0/cv3.2.0.0/act/Sigmoid_output_0: 3c012ebc
/model.23/cv4.2/cv4.2.0/act/Sigmoid_output_0: 3c011bc2
/model.23/cv2.2/cv2.2.0/act/Mul_output_0: 3d4217a2
/model.23/cv3.2/cv3.2.0/cv3.2.0.0/act/Mul_output_0: 3d676ac5
/model.23/cv4.2/cv4.2.0/act/Mul_output_0: 3d0059e9
/model.23/cv2.2/cv2.2.1/conv/Conv_output_0: 3dcf3775
/model.23/cv3.2/cv3.2.0/cv3.2.0.1/conv/Conv_output_0: 3d879772
/model.23/cv4.2/cv4.2.1/conv/Conv_output_0: 3d2a2bb7
/model.23/cv2.2/cv2.2.1/act/Sigmoid_output_0: 3c0315fe
/model.23/cv3.2/cv3.2.0/cv3.2.0.1/act/Sigmoid_output_0: 3c023fc9
/model.23/cv4.2/cv4.2.1/act/Sigmoid_output_0: 3bff18ad
/model.23/cv2.2/cv2.2.1/act/Mul_output_0: 3dc3ac47
/model.23/cv3.2/cv3.2.0/cv3.2.0.1/act/Mul_output_0: 3d11f399
/model.23/cv4.2/cv4.2.1/act/Mul_output_0: 3ce664f2
/model.23/cv2.2/cv2.2.2/Conv_output_0: 3e0625f0
/model.23/cv3.2/cv3.2.1/cv3.2.1.0/conv/Conv_output_0: 3da2b4ce
/model.23/cv4.2/cv4.2.2/Conv_output_0: 3c69254f
/model.23/cv3.2/cv3.2.1/cv3.2.1.0/act/Sigmoid_output_0: 3c06ddb0
/model.23/cv3.2/cv3.2.1/cv3.2.1.0/act/Mul_output_0: 3cb7b26b
/model.23/cv3.2/cv3.2.1/cv3.2.1.1/conv/Conv_output_0: 3e38626b
/model.23/cv3.2/cv3.2.1/cv3.2.1.1/act/Sigmoid_output_0: 3c010a14
/model.23/cv3.2/cv3.2.1/cv3.2.1.1/act/Mul_output_0: 3d9082eb
/model.23/cv3.2/cv3.2.2/Conv_output_0: 3ead8fa9
/model.23/Concat_2_output_0: 3e063b1a
/model.23/Reshape_2_output_0: 3e063b1a
/model.23/Concat_6_output_0: 3e30dca4
/model.23/Split_1_output_0: 3e323826
/model.23/Split_1_output_1: 3eee19e7
/model.23/Split_1_output_2: 3c925796
/model.23/Range_4_output_0: 3e193bf8
(Unnamed Layer* 628) [Shuffle]_output: 3c010a14
/model.23/Range_5_output_0: 3e193bf8
(Unnamed Layer* 637) [Shuffle]_output: 3c010a14
/model.23/Sigmoid_output_0: 3b7b6f30
(Unnamed Layer* 641) [Shuffle]_output: 3b810a14
/model.23/Add_6_output_0: 3e1d4449
(Unnamed Layer* 643) [Shuffle]_output: 3b810a14
/model.23/Add_7_output_0: 3e1d4449
(Unnamed Layer* 648) [Constant]_output: 0
(Unnamed Layer* 649) [Shuffle]_output: 0
/model.23/ConstantOfShape_2_output_0: 0
/model.23/Reshape_15_output_0: 3e1d4449
/model.23/Reshape_16_output_0: 3e1d4449
(Unnamed Layer* 659) [Shuffle]_output: 3e810a14
/model.23/Add_8_output_0: 3e810a14
/model.23/Concat_23_output_0: 3e810a14
/model.23/dfl/Reshape_output_0: 3e323826
/model.23/Expand_4_output_0: 3e1d4449
/model.23/Expand_5_output_0: 3e1d4449
/model.23/Transpose_1_output_0: 3e810a14
/model.23/dfl/Transpose_output_0: 3e323826
/model.23/Unsqueeze_9_output_0: 3e1d4449
/model.23/Unsqueeze_10_output_0: 3e1d4449
(Unnamed Layer* 701) [Softmax]_output: 3bdbb5d9
/model.23/Concat_20_output_0: 3e1d4449
/model.23/dfl/conv/Conv_output_0: 3de28d8e
/model.23/Reshape_17_output_0: 3e1d4449
/model.23/dfl/Reshape_1_output_0: 3de28d8e
/model.23/Concat_22_output_0: 3f204a85
/model.23/Slice_output_0: 3de2c395
/model.23/Slice_1_output_0: 3de8a9b6
/model.23/Transpose_output_0: 3f204a85
/model.23/Unsqueeze_12_output_0: 3f204a85
/model.23/Sub_output_0: 3f1ff921
/model.23/Add_10_output_0: 3f21a84c
/model.23/Add_11_output_0: 3fa0afca
/model.23/Sub_1_output_0: 3e363179
(Unnamed Layer* 771) [Shuffle]_output: 3c810a14
/model.23/Div_1_output_0: 3f20afca
/model.23/Concat_24_output_0: 3f20afca
(Unnamed Layer* 777) [Shuffle]_output: 3e810a14
/model.23/Mul_5_output_0: 40a0afca
output0: 3ecfb64f
